#ifndef MODEL_TFLITE_H
#define MODEL_TFLITE_H

// Modèle TensorFlow Lite
// Taille : 4820 bytes

const unsigned char model_tflite[] = {
  0x1c, 0x00, 0x00, 0x00, 0x54, 0x46, 0x4c, 0x33, 0x14, 0x00, 0x20, 0x00,
  0x1c, 0x00, 0x18, 0x00, 0x14, 0x00, 0x10, 0x00, 0x0c, 0x00, 0x00, 0x00,
  0x08, 0x00, 0x04, 0x00, 0x14, 0x00, 0x00, 0x00, 0x1c, 0x00, 0x00, 0x00,
  0x8c, 0x00, 0x00, 0x00, 0xe4, 0x00, 0x00, 0x00, 0x7c, 0x0d, 0x00, 0x00,
  0x8c, 0x0d, 0x00, 0x00, 0x80, 0x12, 0x00, 0x00, 0x03, 0x00, 0x00, 0x00,
  0x01, 0x00, 0x00, 0x00, 0x10, 0x00, 0x00, 0x00, 0x00, 0x00, 0x0a, 0x00,
  0x10, 0x00, 0x0c, 0x00, 0x08, 0x00, 0x04, 0x00, 0x0a, 0x00, 0x00, 0x00,
  0x0c, 0x00, 0x00, 0x00, 0x1c, 0x00, 0x00, 0x00, 0x38, 0x00, 0x00, 0x00,
  0x0f, 0x00, 0x00, 0x00, 0x73, 0x65, 0x72, 0x76, 0x69, 0x6e, 0x67, 0x5f,
  0x64, 0x65, 0x66, 0x61, 0x75, 0x6c, 0x74, 0x00, 0x01, 0x00, 0x00, 0x00,
  0x04, 0x00, 0x00, 0x00, 0x9c, 0xff, 0xff, 0xff, 0x09, 0x00, 0x00, 0x00,
  0x04, 0x00, 0x00, 0x00, 0x07, 0x00, 0x00, 0x00, 0x64, 0x65, 0x6e, 0x73,
  0x65, 0x5f, 0x32, 0x00, 0x01, 0x00, 0x00, 0x00, 0x04, 0x00, 0x00, 0x00,
  0x4e, 0xf3, 0xff, 0xff, 0x04, 0x00, 0x00, 0x00, 0x07, 0x00, 0x00, 0x00,
  0x69, 0x6e, 0x70, 0x75, 0x74, 0x5f, 0x31, 0x00, 0x02, 0x00, 0x00, 0x00,
  0x34, 0x00, 0x00, 0x00, 0x04, 0x00, 0x00, 0x00, 0xdc, 0xff, 0xff, 0xff,
  0x0c, 0x00, 0x00, 0x00, 0x04, 0x00, 0x00, 0x00, 0x13, 0x00, 0x00, 0x00,
  0x43, 0x4f, 0x4e, 0x56, 0x45, 0x52, 0x53, 0x49, 0x4f, 0x4e, 0x5f, 0x4d,
  0x45, 0x54, 0x41, 0x44, 0x41, 0x54, 0x41, 0x00, 0x08, 0x00, 0x0c, 0x00,
  0x08, 0x00, 0x04, 0x00, 0x08, 0x00, 0x00, 0x00, 0x0b, 0x00, 0x00, 0x00,
  0x04, 0x00, 0x00, 0x00, 0x13, 0x00, 0x00, 0x00, 0x6d, 0x69, 0x6e, 0x5f,
  0x72, 0x75, 0x6e, 0x74, 0x69, 0x6d, 0x65, 0x5f, 0x76, 0x65, 0x72, 0x73,
  0x69, 0x6f, 0x6e, 0x00, 0x0d, 0x00, 0x00, 0x00, 0x94, 0x0c, 0x00, 0x00,
  0x8c, 0x0c, 0x00, 0x00, 0x3c, 0x0c, 0x00, 0x00, 0x20, 0x0c, 0x00, 0x00,
  0x90, 0x0b, 0x00, 0x00, 0x00, 0x09, 0x00, 0x00, 0xf0, 0x00, 0x00, 0x00,
  0xa0, 0x00, 0x00, 0x00, 0x98, 0x00, 0x00, 0x00, 0x90, 0x00, 0x00, 0x00,
  0x88, 0x00, 0x00, 0x00, 0x68, 0x00, 0x00, 0x00, 0x04, 0x00, 0x00, 0x00,
  0xf6, 0xf3, 0xff, 0xff, 0x04, 0x00, 0x00, 0x00, 0x54, 0x00, 0x00, 0x00,
  0x0c, 0x00, 0x00, 0x00, 0x08, 0x00, 0x0e, 0x00, 0x08, 0x00, 0x04, 0x00,
  0x08, 0x00, 0x00, 0x00, 0x10, 0x00, 0x00, 0x00, 0x24, 0x00, 0x00, 0x00,
  0x00, 0x00, 0x06, 0x00, 0x08, 0x00, 0x04, 0x00, 0x06, 0x00, 0x00, 0x00,
  0x04, 0x00, 0x00, 0x00, 0x00, 0x00, 0x00, 0x00, 0x00, 0x00, 0x0a, 0x00,
  0x10, 0x00, 0x0c, 0x00, 0x08, 0x00, 0x04, 0x00, 0x0a, 0x00, 0x00, 0x00,
  0x02, 0x00, 0x00, 0x00, 0x02, 0x00, 0x00, 0x00, 0x04, 0x00, 0x00, 0x00,
  0x06, 0x00, 0x00, 0x00, 0x32, 0x2e, 0x31, 0x35, 0x2e, 0x30, 0x00, 0x00,
  0x56, 0xf4, 0xff, 0xff, 0x04, 0x00, 0x00, 0x00, 0x10, 0x00, 0x00, 0x00,
  0x31, 0x2e, 0x35, 0x2e, 0x30, 0x00, 0x00, 0x00, 0x00, 0x00, 0x00, 0x00,
  0x00, 0x00, 0x00, 0x00, 0x40, 0xef, 0xff, 0xff, 0x44, 0xef, 0xff, 0xff,
  0x48, 0xef, 0xff, 0xff, 0x7e, 0xf4, 0xff, 0xff, 0x04, 0x00, 0x00, 0x00,
  0x40, 0x00, 0x00, 0x00, 0x8d, 0x99, 0x4b, 0x3f, 0x69, 0x53, 0x4a, 0x3f,
  0x4d, 0xc3, 0xb8, 0x3e, 0x2e, 0xf9, 0xcd, 0xbe, 0x63, 0xe8, 0x8d, 0xbe,
  0xe0, 0xe9, 0x05, 0x3f, 0x83, 0x1e, 0x64, 0xbe, 0x48, 0xc1, 0x4b, 0xbe,
  0xb1, 0xc1, 0x02, 0x3f, 0x89, 0x1a, 0xcb, 0xbe, 0x50, 0xcd, 0x98, 0xbd,
  0x15, 0xc9, 0xf8, 0xbe, 0x04, 0xf9, 0x4c, 0x3f, 0x92, 0x1d, 0xe5, 0x3e,
  0x2c, 0xb0, 0x1c, 0x3f, 0x70, 0x75, 0xa2, 0x3e, 0xca, 0xf4, 0xff, 0xff,
  0x04, 0x00, 0x00, 0x00, 0x00, 0x08, 0x00, 0x00, 0x63, 0xec, 0xf6, 0x3e,
  0x1f, 0xc2, 0xc9, 0x3e, 0xb5, 0x7c, 0xd9, 0x3d, 0x02, 0x11, 0xa1, 0x3e,
  0x0a, 0xfe, 0x3c, 0x3e, 0x08, 0x73, 0x83, 0x3e, 0x98, 0x2d, 0xe6, 0x3e,
  0xcd, 0x90, 0x45, 0x3e, 0x91, 0x05, 0xbd, 0x3e, 0x47, 0x12, 0x49, 0x3e,
  0x9b, 0x55, 0x99, 0x3e, 0xaf, 0x97, 0x63, 0x3e, 0x1d, 0xd6, 0x70, 0x3e,
  0x7f, 0x54, 0x46, 0xbe, 0xf9, 0xa8, 0x54, 0x3e, 0xd5, 0xa7, 0x27, 0x3f,
  0xcc, 0xa7, 0x5c, 0x3e, 0xae, 0x64, 0x74, 0x3e, 0xa2, 0x2c, 0xd8, 0x3e,
  0xd2, 0x2b, 0x24, 0x3f, 0x2a, 0xde, 0x14, 0xbf, 0x91, 0xf9, 0xd3, 0x3e,
  0x98, 0xbb, 0xab, 0x3e, 0xc4, 0x16, 0x78, 0x3e, 0xc4, 0xea, 0x81, 0x3e,
  0x64, 0xf5, 0xac, 0xbe, 0xe4, 0xeb, 0x5e, 0xbe, 0xab, 0xa7, 0x07, 0xbf,
  0xbc, 0xfc, 0x4c, 0xbe, 0x60, 0x80, 0x3f, 0x3e, 0x19, 0x0d, 0x8a, 0x3e,
  0x91, 0x8c, 0x5a, 0xbe, 0x4f, 0x64, 0x0d, 0x3f, 0xee, 0xae, 0xaa, 0x3e,
  0x7f, 0xac, 0xb6, 0xbd, 0x83, 0x2f, 0xcc, 0x3e, 0xc8, 0xb3, 0x25, 0xbd,
  0xa7, 0x7c, 0x86, 0x3e, 0xc2, 0x5f, 0x36, 0x3f, 0x4f, 0x63, 0x8a, 0x3e,
  0x41, 0x7e, 0x01, 0x3f, 0x24, 0xa5, 0x11, 0x3e, 0x18, 0xa7, 0xf4, 0x3e,
  0xc2, 0x59, 0x77, 0xbe, 0x1a, 0x5f, 0x4c, 0x3f, 0xcb, 0x28, 0x9b, 0x3e,
  0xf6, 0xb3, 0x95, 0x3e, 0x39, 0x82, 0xb4, 0x3e, 0x72, 0x24, 0x49, 0x3f,
  0x8f, 0x6d, 0x54, 0x3e, 0x25, 0x81, 0x08, 0x3f, 0x66, 0x95, 0xbd, 0x3d,
  0x93, 0x15, 0x13, 0xbf, 0x0d, 0x18, 0x75, 0x3e, 0xe4, 0x83, 0x83, 0x3e,
  0x00, 0xa7, 0x9d, 0xbd, 0x67, 0xe4, 0x7b, 0x3e, 0x7d, 0x65, 0x14, 0xbe,
  0x8f, 0x16, 0x83, 0xbe, 0x0a, 0x17, 0x98, 0xbe, 0xac, 0xb3, 0xc9, 0x3d,
  0xbf, 0xd1, 0xf2, 0xbd, 0xf2, 0x86, 0x73, 0x3e, 0x1d, 0xda, 0x20, 0x3e,
  0x8c, 0x16, 0x13, 0x3d, 0x91, 0x01, 0x09, 0x3f, 0xe4, 0xa2, 0x39, 0x3e,
  0x51, 0x75, 0xf3, 0x3e, 0x48, 0xa8, 0x49, 0x3d, 0x9d, 0xc5, 0xaa, 0x3e,
  0xb4, 0x20, 0xe9, 0x3e, 0x4e, 0x8f, 0xe8, 0x3e, 0x64, 0xd6, 0xfa, 0x3e,
  0xfc, 0x33, 0x63, 0x3e, 0x7f, 0x38, 0xbf, 0x3e, 0x0c, 0xb4, 0x10, 0x3c,
  0xa4, 0x9a, 0xeb, 0x3e, 0x00, 0x6a, 0x34, 0x3d, 0x9d, 0xcd, 0x73, 0x3e,
  0x2a, 0x2d, 0xf3, 0x3e, 0x4d, 0xca, 0x2d, 0x3f, 0xa4, 0xa6, 0xe2, 0x3e,
  0x49, 0x47, 0x89, 0x3d, 0x6a, 0x8b, 0xd5, 0x3e, 0x32, 0xf8, 0x1f, 0xbf,
  0x7d, 0x21, 0xd8, 0x3e, 0x7f, 0xd4, 0xbb, 0x3e, 0x4e, 0x68, 0xf3, 0x3e,
  0xa2, 0x9d, 0xb7, 0x3e, 0x30, 0x95, 0xc9, 0xbd, 0xf8, 0x10, 0x65, 0xbd,
  0x46, 0xe1, 0xfa, 0xbe, 0xb2, 0xa0, 0x30, 0x3e, 0xe4, 0x0e, 0x16, 0x3e,
  0xdd, 0xd7, 0x19, 0x3e, 0x5a, 0x74, 0xfd, 0xbd, 0x65, 0x55, 0x86, 0xbe,
  0x60, 0x44, 0x64, 0x3c, 0x09, 0x92, 0x68, 0x3e, 0xcc, 0x4c, 0x8b, 0xbe,
  0x20, 0x18, 0x4b, 0xbc, 0x53, 0x68, 0xaa, 0x3e, 0x2e, 0x0c, 0x53, 0x3e,
  0xa6, 0x30, 0xc3, 0x3c, 0x80, 0xe4, 0x14, 0xbe, 0x87, 0x18, 0x43, 0xbe,
  0x87, 0x1d, 0x8e, 0xbe, 0xc8, 0x05, 0x8c, 0xbe, 0xed, 0x47, 0x46, 0xbe,
  0x5e, 0x2d, 0x34, 0x3e, 0x1a, 0x43, 0xb4, 0xbe, 0xd2, 0x2b, 0x82, 0xbe,
  0x50, 0x8c, 0xf6, 0x3d, 0xeb, 0x5f, 0x57, 0xbe, 0x37, 0xac, 0xf9, 0x3d,
  0x42, 0xe4, 0x85, 0x3e, 0xb0, 0x2f, 0x0e, 0x3e, 0x91, 0x89, 0xb3, 0x3e,
  0x2c, 0x9b, 0xaa, 0x3e, 0x56, 0x9f, 0x3a, 0xbe, 0xfa, 0x93, 0x8f, 0xbe,
  0xfe, 0xc0, 0x08, 0x3e, 0xab, 0xfc, 0x89, 0xbe, 0x9a, 0x9e, 0x78, 0xbe,
  0xa5, 0x1f, 0x95, 0xbe, 0x8b, 0x77, 0xc4, 0x3d, 0x3d, 0x56, 0x88, 0xbe,
  0x9c, 0x2e, 0x88, 0x3e, 0xf0, 0x6c, 0xa5, 0xbe, 0xee, 0xd7, 0x48, 0x3e,
  0x46, 0xa8, 0x88, 0xbe, 0xfb, 0xb0, 0x80, 0xbe, 0x22, 0x6f, 0x5e, 0xbe,
  0xf4, 0xda, 0x9d, 0x3d, 0xeb, 0xab, 0xc6, 0x3d, 0x8d, 0x67, 0x92, 0xbd,
  0x1e, 0xfd, 0x21, 0xbe, 0x19, 0x4e, 0x82, 0x3e, 0x5c, 0x6b, 0x8c, 0xbc,
  0x4d, 0xc3, 0x99, 0x3e, 0xc8, 0xfd, 0x7e, 0xbd, 0x63, 0x90, 0x9b, 0xbe,
  0xde, 0x36, 0x89, 0x3d, 0xee, 0x62, 0x54, 0x3e, 0x51, 0x3a, 0x98, 0x3d,
  0x33, 0x75, 0x25, 0xbe, 0xd9, 0xe7, 0x90, 0x3e, 0x2b, 0x00, 0x9c, 0x3e,
  0xda, 0x48, 0xb3, 0xbe, 0x4b, 0x5f, 0x0b, 0x3e, 0xb7, 0x1a, 0xb3, 0xbe,
  0xbe, 0xc8, 0x98, 0xbd, 0x6a, 0x9d, 0x98, 0xbc, 0x00, 0x19, 0x82, 0xbd,
  0xc0, 0xc1, 0x9b, 0xbc, 0xad, 0xf4, 0x5b, 0x3e, 0x8e, 0x86, 0x55, 0x3e,
  0x0a, 0x3d, 0xa3, 0xbe, 0xb8, 0x90, 0x0f, 0x3d, 0x27, 0x6e, 0x91, 0xbc,
  0x56, 0x5a, 0xf7, 0x3e, 0x5f, 0xac, 0x83, 0x3e, 0x94, 0xba, 0x7a, 0x3d,
  0x5d, 0xfc, 0xe6, 0x3e, 0x42, 0x3c, 0x31, 0x3e, 0xae, 0xcc, 0xfc, 0x3d,
  0xef, 0xd5, 0xbe, 0x3e, 0x1a, 0x32, 0x83, 0x3e, 0xd2, 0x82, 0x0f, 0x3d,
  0x4b, 0xc2, 0xf2, 0x3d, 0xe7, 0xee, 0x05, 0x3e, 0x2d, 0xfa, 0xa2, 0x3e,
  0xdc, 0x70, 0x65, 0x3f, 0x18, 0x33, 0xec, 0x3d, 0x76, 0x14, 0x3d, 0x3e,
  0xac, 0xca, 0x63, 0x3f, 0x4d, 0xd7, 0x54, 0x3f, 0x70, 0x14, 0xd6, 0xbc,
  0x8b, 0x6e, 0x02, 0x3f, 0x90, 0x2c, 0x0a, 0x3f, 0xc5, 0x34, 0x0a, 0xbf,
  0x40, 0x3a, 0x09, 0x3e, 0x95, 0x6b, 0x11, 0x3f, 0x74, 0x26, 0x3e, 0x3e,
  0x32, 0x38, 0xde, 0xbd, 0x18, 0x13, 0x4f, 0xbd, 0x40, 0x1c, 0x50, 0x3d,
  0xbd, 0x1a, 0x16, 0xbe, 0xe3, 0xbd, 0xa1, 0xbe, 0x50, 0xfa, 0xfa, 0xbc,
  0x9a, 0x7f, 0x90, 0x3e, 0x97, 0xda, 0x1a, 0x3b, 0xb1, 0x44, 0x11, 0xbd,
  0xd5, 0x4f, 0x75, 0xbe, 0xdd, 0x28, 0xb6, 0xbe, 0xf1, 0x3c, 0x02, 0xbe,
  0xd0, 0x12, 0xaf, 0xbd, 0x08, 0x33, 0xcc, 0xbd, 0x58, 0x74, 0xbb, 0xbe,
  0x5a, 0x5c, 0x00, 0x3e, 0x9b, 0xc2, 0xb1, 0xbe, 0xad, 0xfc, 0x4e, 0xbd,
  0x30, 0x87, 0x68, 0xbb, 0x40, 0x1f, 0x6d, 0xbd, 0x88, 0x15, 0x25, 0xbe,
  0x4e, 0xfc, 0x35, 0xbe, 0x01, 0x59, 0xae, 0xbc, 0x78, 0x9d, 0xc0, 0xbd,
  0x44, 0x89, 0x61, 0x3e, 0x2a, 0x8d, 0x91, 0xbe, 0x6a, 0xdf, 0xb8, 0xbe,
  0x40, 0xd4, 0x40, 0xbc, 0xd2, 0x9b, 0x82, 0xbe, 0xb6, 0x16, 0x70, 0x3e,
  0x28, 0xe9, 0xe7, 0x3d, 0x87, 0x38, 0x32, 0xbe, 0x7b, 0xf6, 0x94, 0x3e,
  0x17, 0x38, 0xa2, 0x3e, 0x51, 0x3f, 0x96, 0x3e, 0xc1, 0xe5, 0xe7, 0xbc,
  0x00, 0x7f, 0x0d, 0x3c, 0x19, 0x04, 0x91, 0x3e, 0xa0, 0xc4, 0xa6, 0xbc,
  0x86, 0x14, 0x43, 0x3e, 0x02, 0xb4, 0x2b, 0x3e, 0x08, 0x72, 0x23, 0xbe,
  0x22, 0xcc, 0x5d, 0x3e, 0xae, 0x5c, 0xbe, 0xbe, 0xc0, 0xc8, 0x05, 0xbc,
  0x69, 0x9c, 0x33, 0xbe, 0xf6, 0xb5, 0x89, 0xbe, 0x6d, 0x88, 0xe4, 0x3d,
  0x60, 0xf1, 0xb4, 0xbe, 0x76, 0xfb, 0x1d, 0xbc, 0x15, 0xb4, 0xa0, 0xbe,
  0x3a, 0x80, 0x12, 0x3e, 0x5e, 0x3f, 0xa5, 0xbe, 0x50, 0xc4, 0x97, 0x3c,
  0xd2, 0x07, 0x20, 0xbe, 0x75, 0x0f, 0x06, 0x3d, 0xba, 0x98, 0x65, 0x3e,
  0xca, 0x1b, 0x95, 0x3e, 0xd0, 0x86, 0xcf, 0x3d, 0x2c, 0xba, 0xf1, 0x3d,
  0xca, 0xfd, 0x9b, 0xbd, 0x05, 0xa7, 0x9d, 0xbe, 0x28, 0x40, 0xaa, 0xbe,
  0x3a, 0x4c, 0x5d, 0x3e, 0x01, 0xbe, 0x04, 0xbd, 0xa8, 0xb1, 0x1e, 0xbd,
  0x9c, 0xbc, 0xbc, 0xbd, 0xdc, 0xcb, 0x9d, 0x3e, 0x80, 0x13, 0x19, 0xbc,
  0x46, 0xa8, 0x96, 0x3c, 0xe3, 0x4a, 0xbf, 0xbd, 0x5d, 0x6d, 0x7d, 0x3e,
  0x49, 0xcb, 0xef, 0x3d, 0xbe, 0x1c, 0x10, 0x3f, 0x7d, 0xc4, 0x31, 0xbc,
  0x26, 0x3b, 0x1e, 0x3d, 0x48, 0xa6, 0x0a, 0x3d, 0x52, 0x1d, 0x07, 0x3f,
  0xc5, 0xb4, 0xfb, 0x3e, 0xf2, 0xca, 0xd6, 0x3d, 0x2a, 0xa9, 0x5a, 0x3e,
  0xfe, 0xf0, 0x79, 0x3e, 0x11, 0xfd, 0xfb, 0x3e, 0x44, 0x7f, 0x9a, 0xbd,
  0x11, 0x8c, 0x42, 0x3f, 0xcf, 0xe8, 0x88, 0x3e, 0x54, 0xac, 0xed, 0x3d,
  0x20, 0xba, 0xb2, 0x3e, 0xac, 0xa0, 0x8f, 0x3e, 0x93, 0xee, 0x89, 0x3e,
  0xb0, 0x1d, 0x4f, 0x3e, 0x7a, 0x87, 0x18, 0x3e, 0xd6, 0x68, 0x47, 0xbf,
  0x30, 0x7e, 0x21, 0x3f, 0x45, 0x01, 0xeb, 0x3e, 0x93, 0x5f, 0x68, 0x3e,
  0x38, 0x7d, 0x87, 0xbd, 0x71, 0xc7, 0x2e, 0xbe, 0xd8, 0x3d, 0x8c, 0xbe,
  0x51, 0x8b, 0xf0, 0xbe, 0xa4, 0x0c, 0xcd, 0x3d, 0x32, 0x9b, 0x8c, 0x3e,
  0x21, 0xf8, 0x23, 0x3e, 0x4b, 0x5f, 0xbc, 0x3d, 0x9b, 0x63, 0x81, 0x3d,
  0x29, 0x0d, 0x82, 0xbe, 0xae, 0xf5, 0x07, 0x3e, 0xb3, 0xc0, 0xfa, 0x3c,
  0x69, 0x1b, 0x87, 0xbe, 0x2f, 0xb5, 0x99, 0x3e, 0x79, 0xef, 0x6b, 0xbe,
  0x47, 0x24, 0x7f, 0xbe, 0x58, 0x0d, 0x3a, 0xbe, 0x48, 0x1d, 0x9c, 0xbe,
  0x1b, 0x07, 0x5d, 0xbd, 0x5a, 0xed, 0x85, 0xbe, 0xd6, 0x9f, 0x4f, 0x3e,
  0xed, 0xcf, 0x97, 0xbe, 0x35, 0x7f, 0x7d, 0x3e, 0x20, 0xe0, 0x7a, 0x3d,
  0x05, 0x8f, 0xb2, 0x3d, 0x4b, 0xea, 0x11, 0xbe, 0x72, 0xab, 0x1b, 0xbd,
  0xed, 0xee, 0x8d, 0x3e, 0x6d, 0xfc, 0xad, 0xbd, 0x48, 0xc1, 0x7e, 0xbe,
  0x83, 0x0d, 0x9e, 0xbe, 0x66, 0x57, 0x4a, 0xbe, 0x9a, 0x58, 0xa2, 0xbe,
  0x57, 0x43, 0xb3, 0xbe, 0xb8, 0x86, 0x6f, 0xbd, 0x63, 0x94, 0xc8, 0xbc,
  0x8a, 0x26, 0x38, 0x3e, 0x7e, 0x98, 0x1c, 0x3e, 0xb6, 0x1a, 0xa1, 0xbe,
  0x8e, 0x67, 0xb5, 0x3d, 0xa8, 0x7e, 0x2d, 0xbe, 0x61, 0x03, 0x93, 0x3e,
  0x80, 0x4f, 0x14, 0xbb, 0xe6, 0xd5, 0x96, 0xbe, 0x46, 0x95, 0x3f, 0x3e,
  0x00, 0x2b, 0x1a, 0x3d, 0xc0, 0x34, 0x49, 0xbd, 0x5e, 0x43, 0xb4, 0xbe,
  0x48, 0x1a, 0xd6, 0x3d, 0x88, 0x4e, 0x44, 0xbd, 0xf8, 0xf8, 0x4c, 0x3d,
  0x60, 0x80, 0xbf, 0x3d, 0xbf, 0xa4, 0x91, 0x3e, 0x7a, 0x95, 0x7b, 0x3e,
  0x58, 0x74, 0x30, 0xbe, 0x30, 0xef, 0xa6, 0xbd, 0x2f, 0x50, 0x9b, 0xbe,
  0xe3, 0x53, 0xa1, 0xbe, 0x05, 0x45, 0xa0, 0xbe, 0x7d, 0xbb, 0x8c, 0xbe,
  0x7e, 0x80, 0x46, 0xbe, 0x7e, 0x75, 0x93, 0xbe, 0x4b, 0xc7, 0xa2, 0x3e,
  0x60, 0x0e, 0x11, 0x3e, 0xa0, 0x77, 0xd8, 0xbc, 0xe1, 0xd2, 0xa1, 0xbe,
  0xe0, 0x2a, 0xae, 0xbd, 0xb8, 0xd0, 0xd4, 0x3d, 0x88, 0x14, 0x54, 0x3d,
  0x57, 0xe3, 0xb2, 0xbe, 0x51, 0xb4, 0xae, 0xbe, 0x70, 0x6c, 0xf8, 0x3d,
  0xc9, 0x15, 0x86, 0xbe, 0x59, 0x6f, 0xe1, 0xbd, 0xff, 0x98, 0x57, 0xbc,
  0xd5, 0x1b, 0x5f, 0xbe, 0x80, 0xe5, 0x71, 0x3b, 0x02, 0x3d, 0x17, 0x3d,
  0x15, 0xb7, 0x1c, 0xbe, 0xd1, 0xb9, 0xd6, 0xbd, 0x9e, 0x24, 0xbe, 0xbe,
  0x70, 0x41, 0xaa, 0xbe, 0x6c, 0xea, 0x10, 0xbe, 0xba, 0x03, 0xa6, 0x3d,
  0xe7, 0xec, 0x3b, 0xbe, 0xb4, 0x69, 0xf3, 0x3d, 0x84, 0xae, 0x31, 0x3e,
  0x50, 0x48, 0x50, 0x3e, 0x21, 0xbd, 0x99, 0x3e, 0x0f, 0x79, 0x95, 0x3e,
  0xc4, 0x98, 0x91, 0x3e, 0x34, 0x63, 0xa1, 0xbe, 0x4d, 0x94, 0xe8, 0x3d,
  0x39, 0x8b, 0x3a, 0xbd, 0x89, 0xdc, 0x35, 0x3e, 0xf1, 0xb7, 0x8c, 0x3e,
  0x55, 0x4b, 0x08, 0xbd, 0x18, 0x44, 0x83, 0x3d, 0x50, 0xd9, 0x9e, 0xbd,
  0x27, 0x79, 0xbc, 0xbe, 0xa3, 0xa4, 0xae, 0xbe, 0x94, 0xc0, 0x8e, 0xbe,
  0xd6, 0xf5, 0x96, 0xbe, 0x1f, 0xff, 0x55, 0x3e, 0x4f, 0x4c, 0x47, 0x3b,
  0x0b, 0xd8, 0xd5, 0x3e, 0x64, 0xb5, 0xb9, 0x3e, 0xdc, 0x49, 0x3a, 0x3e,
  0xb8, 0xe1, 0x03, 0x3e, 0x80, 0x53, 0xfb, 0x3e, 0x94, 0xa5, 0x73, 0x3e,
  0xe7, 0x80, 0x44, 0x3e, 0x65, 0xd2, 0x49, 0x3e, 0x35, 0x76, 0x12, 0x3f,
  0xae, 0x4a, 0x8e, 0x3d, 0x42, 0xdf, 0x3c, 0x3e, 0x0f, 0x44, 0x09, 0x3f,
  0xb8, 0x63, 0x87, 0x3d, 0xa2, 0x81, 0xaa, 0xbd, 0xa6, 0x77, 0x52, 0x3f,
  0x09, 0x39, 0x3c, 0x3f, 0x9a, 0xa6, 0x34, 0xbd, 0x07, 0x11, 0x89, 0x3e,
  0x95, 0xee, 0x04, 0x3e, 0xf0, 0xa4, 0xbc, 0xbe, 0x5b, 0xcd, 0xdd, 0x3e,
  0x8a, 0xcd, 0xb1, 0x3e, 0x09, 0xd4, 0x85, 0x3e, 0xd2, 0xd8, 0xbc, 0x3e,
  0xcd, 0x05, 0x8f, 0x3e, 0x88, 0xb2, 0xdc, 0x3d, 0xc9, 0xc9, 0x00, 0xbf,
  0x1e, 0x72, 0x73, 0x3e, 0xe5, 0x75, 0xe4, 0x3e, 0x13, 0x86, 0xfd, 0x3e,
  0xcf, 0x94, 0x9a, 0x3d, 0x5b, 0x8b, 0x06, 0x3f, 0xac, 0x5b, 0x00, 0x3f,
  0x74, 0x66, 0x88, 0x3e, 0xa2, 0xc3, 0x8b, 0xbb, 0xb5, 0xcc, 0x99, 0x3e,
  0x69, 0xf3, 0xf8, 0x3e, 0x69, 0xa7, 0xf6, 0x3e, 0x22, 0xab, 0x9b, 0xba,
  0x8d, 0x4b, 0xf7, 0x3e, 0xe6, 0xa0, 0x51, 0x3e, 0xf5, 0xe2, 0x0c, 0x3f,
  0xa0, 0x3c, 0x94, 0xbe, 0x07, 0x2c, 0x3d, 0x3f, 0x50, 0x3d, 0x8c, 0xbe,
  0xec, 0x69, 0x02, 0x3d, 0xbd, 0x7c, 0x5c, 0x3f, 0xac, 0x2f, 0x1c, 0x3f,
  0x14, 0x59, 0xd9, 0x3e, 0x15, 0x59, 0xe5, 0x3e, 0x62, 0xa3, 0x99, 0x3e,
  0x77, 0xf7, 0xf9, 0xbe, 0xac, 0x4c, 0x20, 0x3f, 0x39, 0x25, 0xf1, 0x3e,
  0x85, 0xcb, 0x3b, 0xbe, 0x3b, 0x83, 0xd2, 0x3e, 0x80, 0x98, 0xa9, 0xbe,
  0x52, 0xa7, 0x0a, 0x3e, 0x6a, 0x5d, 0xb0, 0xbd, 0xe8, 0xbb, 0xc2, 0xbd,
  0x8e, 0x21, 0xa6, 0x3d, 0x3d, 0x83, 0x2b, 0x3f, 0xff, 0x55, 0x57, 0xbd,
  0x93, 0x41, 0x11, 0x3f, 0xbc, 0xcb, 0x26, 0x3f, 0x9b, 0xf2, 0xa6, 0x3e,
  0x75, 0x9a, 0x95, 0x3d, 0x90, 0x67, 0x12, 0x3d, 0x8b, 0x68, 0x16, 0x3f,
  0xe9, 0x4d, 0x22, 0x3e, 0xd5, 0x61, 0xfd, 0x3e, 0x15, 0xb5, 0xfc, 0x3e,
  0xec, 0xe8, 0x1d, 0x3e, 0x27, 0x27, 0xdd, 0x3d, 0x7a, 0x86, 0x97, 0xbe,
  0xe6, 0x01, 0xc9, 0x3e, 0xf8, 0xa3, 0x4e, 0xbd, 0x96, 0xf6, 0x26, 0x3e,
  0x94, 0xe9, 0x15, 0x3f, 0x8c, 0xa1, 0x51, 0x3e, 0x05, 0xf6, 0xcc, 0x3e,
  0x5f, 0xa5, 0xba, 0x3e, 0xae, 0x8a, 0xc9, 0x3d, 0x79, 0xcb, 0x0e, 0xbf,
  0x73, 0x19, 0xdf, 0x3e, 0x87, 0x3c, 0xf0, 0x3d, 0xf4, 0x66, 0xde, 0x3e,
  0x12, 0xc2, 0x93, 0x3d, 0xa4, 0x95, 0xf4, 0xbd, 0x80, 0x29, 0x6a, 0x3b,
  0xb0, 0xbe, 0xd3, 0xbe, 0xc3, 0xa8, 0x99, 0x3e, 0xe3, 0x58, 0xd3, 0x3e,
  0x24, 0xb2, 0xe2, 0x3e, 0x59, 0x8a, 0x20, 0xbd, 0x78, 0x17, 0xbb, 0xbd,
  0xb7, 0xa6, 0x11, 0x3f, 0xbe, 0x0c, 0xbc, 0x3e, 0x25, 0x91, 0x84, 0x3e,
  0x20, 0x84, 0xd2, 0xbc, 0x75, 0x39, 0x10, 0x3d, 0xae, 0x0a, 0x3f, 0x3e,
  0x6a, 0x0d, 0x35, 0xbc, 0x95, 0xa5, 0xf2, 0x3e, 0x6d, 0x93, 0x41, 0xbe,
  0xb0, 0x27, 0x33, 0x3e, 0x7b, 0xf8, 0x44, 0xbe, 0x16, 0xf1, 0x2c, 0x3f,
  0xe4, 0x07, 0x97, 0xbd, 0x23, 0xeb, 0x63, 0xbe, 0x12, 0x77, 0x28, 0x3f,
  0x64, 0x2f, 0xf2, 0x3e, 0xee, 0xcd, 0xb1, 0x3d, 0x53, 0x48, 0x17, 0x3f,
  0x73, 0xf1, 0xde, 0x3e, 0x42, 0x76, 0x07, 0xbf, 0xae, 0xca, 0x22, 0x3f,
  0x29, 0xac, 0x02, 0x3f, 0x45, 0x4f, 0x73, 0xbe, 0x21, 0x52, 0xf8, 0x3d,
  0x31, 0xf4, 0x81, 0xbe, 0x82, 0xea, 0x1d, 0xbe, 0x91, 0x3b, 0x90, 0xbe,
  0x00, 0xc7, 0x4e, 0xbd, 0xd3, 0xbf, 0x02, 0x3e, 0xeb, 0xd4, 0xf7, 0x3e,
  0x8e, 0x4c, 0xbf, 0x3e, 0xd6, 0xfc, 0xff, 0xff, 0x04, 0x00, 0x00, 0x00,
  0x80, 0x02, 0x00, 0x00, 0x8f, 0xb1, 0xef, 0x3e, 0xec, 0x4a, 0x11, 0xbf,
  0xd2, 0xc5, 0xae, 0x3e, 0xcc, 0x96, 0xbf, 0x3e, 0x57, 0x05, 0xa7, 0x3e,
  0x3c, 0x9c, 0x8b, 0xbb, 0x65, 0xe5, 0xea, 0xbe, 0x67, 0x0d, 0x9d, 0xbd,
  0x2f, 0xa9, 0x71, 0x3d, 0x02, 0x71, 0xf4, 0x3e, 0x58, 0x4d, 0xa2, 0x3e,
  0xec, 0xb8, 0x9a, 0xbe, 0x79, 0x4f, 0x99, 0x3e, 0x6e, 0xb4, 0xc5, 0x3d,
  0xbd, 0xc9, 0xed, 0xbd, 0xf3, 0xd1, 0xd3, 0x3e, 0xe4, 0xe3, 0x98, 0xbd,
  0xae, 0x2e, 0xec, 0x3e, 0x77, 0xb4, 0xea, 0x3e, 0x8d, 0x89, 0xa9, 0x3d,
  0x6f, 0x26, 0x60, 0xbe, 0x7d, 0x80, 0x4e, 0xbe, 0xa4, 0x4c, 0xd0, 0xbd,
  0xa4, 0x68, 0xba, 0xbe, 0x64, 0xab, 0x3f, 0x3e, 0x36, 0x34, 0x55, 0x3e,
  0x97, 0x07, 0x3f, 0xbe, 0x46, 0xb4, 0xe4, 0xbd, 0x8d, 0x40, 0x50, 0x3e,
  0xca, 0x86, 0x45, 0xbe, 0xbd, 0x20, 0xbc, 0x3d, 0x01, 0x36, 0x29, 0xbf,
  0x88, 0x25, 0x29, 0xbd, 0x4b, 0xfb, 0x73, 0x3e, 0x81, 0x01, 0xdc, 0x3e,
  0x18, 0xfc, 0xca, 0x3e, 0x4b, 0x3a, 0x62, 0x3d, 0x6f, 0xdc, 0xa0, 0x3e,
  0x8e, 0xbe, 0xaa, 0x3e, 0x5f, 0x23, 0xea, 0xbd, 0xd4, 0xa3, 0x61, 0x3e,
  0x5e, 0xf0, 0x11, 0xbf, 0x0d, 0x8f, 0xc9, 0x3e, 0x8f, 0x2c, 0x96, 0x3e,
  0x3b, 0x8f, 0x58, 0x3e, 0xc1, 0xf0, 0xa2, 0x3e, 0xbc, 0x02, 0x4d, 0xbe,
  0x50, 0xbc, 0x88, 0xbe, 0xa8, 0x2f, 0x9e, 0x3d, 0x54, 0xf0, 0xf8, 0x3e,
  0x56, 0xa9, 0x5b, 0x3e, 0xf7, 0x22, 0xb1, 0xbe, 0x1a, 0xca, 0xad, 0x3e,
  0xb5, 0x60, 0x2c, 0x3e, 0x29, 0xf4, 0x8e, 0x3e, 0x3f, 0xbd, 0xca, 0xbe,
  0x95, 0xc8, 0x90, 0x3c, 0x8c, 0x4f, 0x64, 0xbe, 0x28, 0x86, 0x1f, 0x3e,
  0x71, 0xf1, 0xd1, 0xbe, 0xe4, 0x1a, 0xf4, 0x3e, 0x36, 0xaa, 0x46, 0xbf,
  0x57, 0x76, 0x48, 0x3e, 0x85, 0xa9, 0x45, 0x3c, 0x16, 0x43, 0x11, 0xbe,
  0x00, 0x00, 0x7f, 0x3b, 0x65, 0x43, 0x37, 0xbe, 0xcf, 0xde, 0x33, 0xbe,
  0x8e, 0x87, 0x74, 0xbe, 0xf8, 0x1c, 0x50, 0xbd, 0x35, 0xcc, 0xbf, 0x3e,
  0xc2, 0xb5, 0xf8, 0xbd, 0x94, 0x96, 0x00, 0x3f, 0x58, 0x06, 0x9b, 0x3d,
  0x3a, 0x6e, 0x27, 0x3e, 0xd5, 0x6e, 0x97, 0xbd, 0xe9, 0xc8, 0x32, 0xbf,
  0x8d, 0x30, 0x78, 0xbd, 0x49, 0x5f, 0x11, 0x3e, 0x3a, 0x11, 0xc2, 0x3e,
  0xb5, 0x3f, 0xde, 0x3e, 0xc7, 0xbd, 0x2f, 0xbf, 0x9c, 0x6f, 0x5a, 0xbc,
  0x8a, 0xff, 0x8c, 0x3d, 0x10, 0xb1, 0x18, 0x3e, 0x0e, 0x73, 0x0b, 0xbe,
  0xfb, 0x0d, 0xfd, 0xbc, 0x7d, 0xdf, 0xcf, 0x3e, 0x9f, 0x78, 0xc5, 0x3e,
  0x10, 0xce, 0xc7, 0x3e, 0xfd, 0x54, 0x56, 0xbe, 0xed, 0x1f, 0xe9, 0xbe,
  0xfc, 0xfd, 0xca, 0x3e, 0x03, 0x5c, 0xaa, 0x3e, 0x72, 0x6b, 0xd9, 0x3e,
  0x5c, 0xe1, 0xe5, 0x3e, 0x68, 0x46, 0x33, 0xbf, 0x74, 0xd8, 0x6f, 0x3e,
  0x24, 0x62, 0x10, 0x3f, 0x3f, 0x84, 0xc1, 0x3d, 0x79, 0x06, 0x95, 0x3e,
  0xe6, 0xc1, 0x45, 0x3f, 0x2f, 0x31, 0x88, 0xbc, 0x84, 0x2c, 0xde, 0x3d,
  0xb5, 0x93, 0xd8, 0x3d, 0x89, 0x9a, 0x0a, 0xbe, 0x91, 0xd1, 0xf7, 0xbe,
  0xad, 0x07, 0xa5, 0x3e, 0xcb, 0xcc, 0x25, 0x3e, 0x99, 0xd3, 0x7e, 0x3e,
  0x64, 0x15, 0x01, 0xbe, 0x21, 0x49, 0x6f, 0xbe, 0x5d, 0x7a, 0xe5, 0x3d,
  0x2a, 0x46, 0x0c, 0x3f, 0xa0, 0xf7, 0x0d, 0x3d, 0x71, 0x62, 0xb3, 0x3e,
  0xe2, 0xb4, 0x7d, 0x3c, 0xdc, 0xe3, 0xda, 0x3e, 0x91, 0x91, 0x72, 0xbd,
  0x03, 0x55, 0xbf, 0x3d, 0x8b, 0xd9, 0xfa, 0x3e, 0x52, 0xb6, 0x86, 0xbd,
  0xfa, 0x30, 0xb6, 0x3e, 0xec, 0x01, 0x5c, 0x3e, 0xe4, 0x08, 0x84, 0x3e,
  0xb1, 0x94, 0x96, 0xbe, 0x9d, 0x97, 0x74, 0xbe, 0x1f, 0x28, 0xcc, 0xbe,
  0x10, 0x72, 0x29, 0x3e, 0x80, 0x29, 0x18, 0x3b, 0x62, 0xce, 0xbd, 0xbe,
  0x38, 0x44, 0x6e, 0x3d, 0xdc, 0x30, 0xaa, 0xbe, 0xec, 0xf5, 0xcc, 0xbe,
  0x0d, 0x51, 0x96, 0xbe, 0x18, 0x74, 0xc1, 0x3c, 0xf4, 0x27, 0x19, 0x3f,
  0x73, 0x30, 0xb1, 0x3d, 0x15, 0x5c, 0x6f, 0xbd, 0x44, 0x2f, 0xc2, 0x3e,
  0x04, 0xf6, 0x0d, 0xbe, 0xf4, 0xfb, 0xbd, 0xbe, 0xf0, 0x7b, 0x86, 0xbd,
  0x60, 0xaf, 0x22, 0x3d, 0x50, 0x17, 0xb6, 0xbd, 0x4b, 0x7c, 0xe7, 0x3e,
  0xaa, 0xe1, 0x10, 0xbd, 0x0d, 0x8e, 0xaa, 0xbe, 0x1d, 0x31, 0x87, 0x3e,
  0x83, 0x63, 0x26, 0x3e, 0x01, 0xd5, 0x5e, 0x3e, 0xfd, 0x20, 0x2d, 0xbe,
  0x61, 0x91, 0x29, 0xbe, 0xda, 0x00, 0x55, 0x3e, 0x6a, 0x2b, 0x39, 0xbe,
  0x07, 0xe1, 0xf5, 0xbd, 0x6f, 0x8a, 0x51, 0xbe, 0xe5, 0x32, 0x64, 0x3e,
  0x94, 0x57, 0x26, 0x3e, 0xe9, 0xfa, 0xd1, 0x3d, 0x62, 0xff, 0xff, 0xff,
  0x04, 0x00, 0x00, 0x00, 0x80, 0x00, 0x00, 0x00, 0xac, 0xe0, 0x81, 0x3e,
  0x6b, 0x71, 0xc3, 0x3e, 0xc3, 0x51, 0x30, 0x3e, 0x7b, 0xce, 0x8a, 0x3e,
  0x00, 0x00, 0x00, 0x00, 0x72, 0x7f, 0xc1, 0x3e, 0x19, 0x2d, 0xb5, 0x3e,
  0x50, 0x17, 0x8d, 0x3e, 0x5c, 0x2b, 0x8a, 0x3e, 0x45, 0x5f, 0x9f, 0x3e,
  0x11, 0xcc, 0x95, 0x3e, 0xfb, 0xbc, 0x3a, 0xbc, 0xc4, 0xe5, 0xd0, 0x3e,
  0x00, 0x00, 0x00, 0x00, 0x85, 0x9a, 0x9a, 0x3e, 0x9a, 0x2e, 0xe8, 0x3e,
  0xf4, 0x1b, 0xad, 0x3e, 0x85, 0x14, 0x98, 0x3e, 0xaa, 0x82, 0x9d, 0x3e,
  0x15, 0xfd, 0xab, 0x3e, 0x03, 0x35, 0xd0, 0xbd, 0xc6, 0x7c, 0xc4, 0x3e,
  0x16, 0x81, 0xb6, 0x3e, 0x7a, 0xc6, 0x90, 0x3e, 0x21, 0xb3, 0x97, 0x3e,
  0x00, 0x00, 0x00, 0x00, 0x00, 0x00, 0x00, 0x00, 0xc6, 0xa1, 0x70, 0xbd,
  0x00, 0x00, 0x00, 0x00, 0x8f, 0xbd, 0x87, 0x3e, 0x39, 0xfb, 0xca, 0x3e,
  0x1f, 0x75, 0x09, 0xbe, 0xee, 0xff, 0xff, 0xff, 0x04, 0x00, 0x00, 0x00,
  0x04, 0x00, 0x00, 0x00, 0x25, 0x38, 0x35, 0x3e, 0x00, 0x00, 0x06, 0x00,
  0x08, 0x00, 0x04, 0x00, 0x06, 0x00, 0x00, 0x00, 0x04, 0x00, 0x00, 0x00,
  0x40, 0x00, 0x00, 0x00, 0x7f, 0x39, 0x4c, 0x3e, 0x8b, 0xd0, 0x4e, 0x3e,
  0xb2, 0x38, 0x84, 0x3e, 0xd0, 0x22, 0x07, 0xbc, 0x2f, 0x47, 0xaa, 0xbc,
  0x1a, 0x6d, 0x8c, 0x3e, 0x16, 0x15, 0x98, 0xbc, 0xa8, 0x5b, 0x06, 0xbd,
  0x0f, 0xe5, 0x90, 0x3e, 0xd3, 0x1e, 0x92, 0xbc, 0x00, 0x00, 0x00, 0x00,
  0x08, 0xae, 0x27, 0xbd, 0x7b, 0x03, 0x92, 0x3e, 0xfe, 0xee, 0x86, 0x3e,
  0x3e, 0x20, 0x55, 0x3e, 0xe0, 0x54, 0x2d, 0x3e, 0x20, 0xfb, 0xff, 0xff,
  0x24, 0xfb, 0xff, 0xff, 0x0f, 0x00, 0x00, 0x00, 0x4d, 0x4c, 0x49, 0x52,
  0x20, 0x43, 0x6f, 0x6e, 0x76, 0x65, 0x72, 0x74, 0x65, 0x64, 0x2e, 0x00,
  0x01, 0x00, 0x00, 0x00, 0x14, 0x00, 0x00, 0x00, 0x00, 0x00, 0x0e, 0x00,
  0x18, 0x00, 0x14, 0x00, 0x10, 0x00, 0x0c, 0x00, 0x08, 0x00, 0x04, 0x00,
  0x0e, 0x00, 0x00, 0x00, 0x14, 0x00, 0x00, 0x00, 0x1c, 0x00, 0x00, 0x00,
  0xd8, 0x00, 0x00, 0x00, 0xdc, 0x00, 0x00, 0x00, 0xe0, 0x00, 0x00, 0x00,
  0x04, 0x00, 0x00, 0x00, 0x6d, 0x61, 0x69, 0x6e, 0x00, 0x00, 0x00, 0x00,
  0x03, 0x00, 0x00, 0x00, 0x80, 0x00, 0x00, 0x00, 0x38, 0x00, 0x00, 0x00,
  0x04, 0x00, 0x00, 0x00, 0x9a, 0xff, 0xff, 0xff, 0x10, 0x00, 0x00, 0x00,
  0x00, 0x00, 0x00, 0x08, 0x0c, 0x00, 0x00, 0x00, 0x10, 0x00, 0x00, 0x00,
  0x9c, 0xfb, 0xff, 0xff, 0x01, 0x00, 0x00, 0x00, 0x09, 0x00, 0x00, 0x00,
  0x03, 0x00, 0x00, 0x00, 0x08, 0x00, 0x00, 0x00, 0x06, 0x00, 0x00, 0x00,
  0x02, 0x00, 0x00, 0x00, 0xca, 0xff, 0xff, 0xff, 0x10, 0x00, 0x00, 0x00,
  0x00, 0x00, 0x00, 0x08, 0x10, 0x00, 0x00, 0x00, 0x14, 0x00, 0x00, 0x00,
  0xba, 0xff, 0xff, 0xff, 0x00, 0x00, 0x00, 0x01, 0x01, 0x00, 0x00, 0x00,
  0x08, 0x00, 0x00, 0x00, 0x03, 0x00, 0x00, 0x00, 0x07, 0x00, 0x00, 0x00,
  0x05, 0x00, 0x00, 0x00, 0x01, 0x00, 0x00, 0x00, 0x00, 0x00, 0x0e, 0x00,
  0x16, 0x00, 0x00, 0x00, 0x10, 0x00, 0x0c, 0x00, 0x0b, 0x00, 0x04, 0x00,
  0x0e, 0x00, 0x00, 0x00, 0x18, 0x00, 0x00, 0x00, 0x00, 0x00, 0x00, 0x08,
  0x18, 0x00, 0x00, 0x00, 0x1c, 0x00, 0x00, 0x00, 0x00, 0x00, 0x06, 0x00,
  0x08, 0x00, 0x07, 0x00, 0x06, 0x00, 0x00, 0x00, 0x00, 0x00, 0x00, 0x01,
  0x01, 0x00, 0x00, 0x00, 0x07, 0x00, 0x00, 0x00, 0x03, 0x00, 0x00, 0x00,
  0x00, 0x00, 0x00, 0x00, 0x04, 0x00, 0x00, 0x00, 0x03, 0x00, 0x00, 0x00,
  0x01, 0x00, 0x00, 0x00, 0x09, 0x00, 0x00, 0x00, 0x01, 0x00, 0x00, 0x00,
  0x00, 0x00, 0x00, 0x00, 0x0a, 0x00, 0x00, 0x00, 0x8c, 0x03, 0x00, 0x00,
  0x1c, 0x03, 0x00, 0x00, 0xac, 0x02, 0x00, 0x00, 0x58, 0x02, 0x00, 0x00,
  0x10, 0x02, 0x00, 0x00, 0xc4, 0x01, 0x00, 0x00, 0x78, 0x01, 0x00, 0x00,
  0xf0, 0x00, 0x00, 0x00, 0x60, 0x00, 0x00, 0x00, 0x04, 0x00, 0x00, 0x00,
  0xb2, 0xfc, 0xff, 0xff, 0x00, 0x00, 0x00, 0x01, 0x14, 0x00, 0x00, 0x00,
  0x1c, 0x00, 0x00, 0x00, 0x1c, 0x00, 0x00, 0x00, 0x0a, 0x00, 0x00, 0x00,
  0x34, 0x00, 0x00, 0x00, 0x02, 0x00, 0x00, 0x00, 0xff, 0xff, 0xff, 0xff,
  0x01, 0x00, 0x00, 0x00, 0x9c, 0xfc, 0xff, 0xff, 0x19, 0x00, 0x00, 0x00,
  0x53, 0x74, 0x61, 0x74, 0x65, 0x66, 0x75, 0x6c, 0x50, 0x61, 0x72, 0x74,
  0x69, 0x74, 0x69, 0x6f, 0x6e, 0x65, 0x64, 0x43, 0x61, 0x6c, 0x6c, 0x3a,
  0x30, 0x00, 0x00, 0x00, 0x02, 0x00, 0x00, 0x00, 0x01, 0x00, 0x00, 0x00,
  0x01, 0x00, 0x00, 0x00, 0x0a, 0xfd, 0xff, 0xff, 0x00, 0x00, 0x00, 0x01,
  0x14, 0x00, 0x00, 0x00, 0x1c, 0x00, 0x00, 0x00, 0x1c, 0x00, 0x00, 0x00,
  0x09, 0x00, 0x00, 0x00, 0x68, 0x00, 0x00, 0x00, 0x02, 0x00, 0x00, 0x00,
  0xff, 0xff, 0xff, 0xff, 0x10, 0x00, 0x00, 0x00, 0xf4, 0xfc, 0xff, 0xff,
  0x4c, 0x00, 0x00, 0x00, 0x73, 0x65, 0x71, 0x75, 0x65, 0x6e, 0x74, 0x69,
  0x61, 0x6c, 0x2f, 0x64, 0x65, 0x6e, 0x73, 0x65, 0x5f, 0x31, 0x2f, 0x4d,
  0x61, 0x74, 0x4d, 0x75, 0x6c, 0x3b, 0x73, 0x65, 0x71, 0x75, 0x65, 0x6e,
  0x74, 0x69, 0x61, 0x6c, 0x2f, 0x64, 0x65, 0x6e, 0x73, 0x65, 0x5f, 0x31,
  0x2f, 0x52, 0x65, 0x6c, 0x75, 0x3b, 0x73, 0x65, 0x71, 0x75, 0x65, 0x6e,
  0x74, 0x69, 0x61, 0x6c, 0x2f, 0x64, 0x65, 0x6e, 0x73, 0x65, 0x5f, 0x31,
  0x2f, 0x42, 0x69, 0x61, 0x73, 0x41, 0x64, 0x64, 0x00, 0x00, 0x00, 0x00,
  0x02, 0x00, 0x00, 0x00, 0x01, 0x00, 0x00, 0x00, 0x10, 0x00, 0x00, 0x00,
  0x96, 0xfd, 0xff, 0xff, 0x00, 0x00, 0x00, 0x01, 0x14, 0x00, 0x00, 0x00,
  0x1c, 0x00, 0x00, 0x00, 0x1c, 0x00, 0x00, 0x00, 0x08, 0x00, 0x00, 0x00,
  0x60, 0x00, 0x00, 0x00, 0x02, 0x00, 0x00, 0x00, 0xff, 0xff, 0xff, 0xff,
  0x20, 0x00, 0x00, 0x00, 0x80, 0xfd, 0xff, 0xff, 0x46, 0x00, 0x00, 0x00,
  0x73, 0x65, 0x71, 0x75, 0x65, 0x6e, 0x74, 0x69, 0x61, 0x6c, 0x2f, 0x64,
  0x65, 0x6e, 0x73, 0x65, 0x2f, 0x4d, 0x61, 0x74, 0x4d, 0x75, 0x6c, 0x3b,
  0x73, 0x65, 0x71, 0x75, 0x65, 0x6e, 0x74, 0x69, 0x61, 0x6c, 0x2f, 0x64,
  0x65, 0x6e, 0x73, 0x65, 0x2f, 0x52, 0x65, 0x6c, 0x75, 0x3b, 0x73, 0x65,
  0x71, 0x75, 0x65, 0x6e, 0x74, 0x69, 0x61, 0x6c, 0x2f, 0x64, 0x65, 0x6e,
  0x73, 0x65, 0x2f, 0x42, 0x69, 0x61, 0x73, 0x41, 0x64, 0x64, 0x00, 0x00,
  0x02, 0x00, 0x00, 0x00, 0x01, 0x00, 0x00, 0x00, 0x20, 0x00, 0x00, 0x00,
  0x86, 0xfe, 0xff, 0xff, 0x00, 0x00, 0x00, 0x01, 0x10, 0x00, 0x00, 0x00,
  0x10, 0x00, 0x00, 0x00, 0x07, 0x00, 0x00, 0x00, 0x28, 0x00, 0x00, 0x00,
  0xf4, 0xfd, 0xff, 0xff, 0x19, 0x00, 0x00, 0x00, 0x73, 0x65, 0x71, 0x75,
  0x65, 0x6e, 0x74, 0x69, 0x61, 0x6c, 0x2f, 0x64, 0x65, 0x6e, 0x73, 0x65,
  0x5f, 0x32, 0x2f, 0x4d, 0x61, 0x74, 0x4d, 0x75, 0x6c, 0x00, 0x00, 0x00,
  0x02, 0x00, 0x00, 0x00, 0x01, 0x00, 0x00, 0x00, 0x10, 0x00, 0x00, 0x00,
  0xce, 0xfe, 0xff, 0xff, 0x00, 0x00, 0x00, 0x01, 0x10, 0x00, 0x00, 0x00,
  0x10, 0x00, 0x00, 0x00, 0x06, 0x00, 0x00, 0x00, 0x28, 0x00, 0x00, 0x00,
  0x3c, 0xfe, 0xff, 0xff, 0x19, 0x00, 0x00, 0x00, 0x73, 0x65, 0x71, 0x75,
  0x65, 0x6e, 0x74, 0x69, 0x61, 0x6c, 0x2f, 0x64, 0x65, 0x6e, 0x73, 0x65,
  0x5f, 0x31, 0x2f, 0x4d, 0x61, 0x74, 0x4d, 0x75, 0x6c, 0x00, 0x00, 0x00,
  0x02, 0x00, 0x00, 0x00, 0x10, 0x00, 0x00, 0x00, 0x20, 0x00, 0x00, 0x00,
  0x16, 0xff, 0xff, 0xff, 0x00, 0x00, 0x00, 0x01, 0x10, 0x00, 0x00, 0x00,
  0x10, 0x00, 0x00, 0x00, 0x05, 0x00, 0x00, 0x00, 0x24, 0x00, 0x00, 0x00,
  0x84, 0xfe, 0xff, 0xff, 0x17, 0x00, 0x00, 0x00, 0x73, 0x65, 0x71, 0x75,
  0x65, 0x6e, 0x74, 0x69, 0x61, 0x6c, 0x2f, 0x64, 0x65, 0x6e, 0x73, 0x65,
  0x2f, 0x4d, 0x61, 0x74, 0x4d, 0x75, 0x6c, 0x00, 0x02, 0x00, 0x00, 0x00,
  0x20, 0x00, 0x00, 0x00, 0x05, 0x00, 0x00, 0x00, 0x5a, 0xff, 0xff, 0xff,
  0x00, 0x00, 0x00, 0x01, 0x10, 0x00, 0x00, 0x00, 0x10, 0x00, 0x00, 0x00,
  0x04, 0x00, 0x00, 0x00, 0x34, 0x00, 0x00, 0x00, 0xc8, 0xfe, 0xff, 0xff,
  0x27, 0x00, 0x00, 0x00, 0x73, 0x65, 0x71, 0x75, 0x65, 0x6e, 0x74, 0x69,
  0x61, 0x6c, 0x2f, 0x64, 0x65, 0x6e, 0x73, 0x65, 0x2f, 0x42, 0x69, 0x61,
  0x73, 0x41, 0x64, 0x64, 0x2f, 0x52, 0x65, 0x61, 0x64, 0x56, 0x61, 0x72,
  0x69, 0x61, 0x62, 0x6c, 0x65, 0x4f, 0x70, 0x00, 0x01, 0x00, 0x00, 0x00,
  0x20, 0x00, 0x00, 0x00, 0xaa, 0xff, 0xff, 0xff, 0x00, 0x00, 0x00, 0x01,
  0x10, 0x00, 0x00, 0x00, 0x10, 0x00, 0x00, 0x00, 0x03, 0x00, 0x00, 0x00,
  0x38, 0x00, 0x00, 0x00, 0x18, 0xff, 0xff, 0xff, 0x29, 0x00, 0x00, 0x00,
  0x73, 0x65, 0x71, 0x75, 0x65, 0x6e, 0x74, 0x69, 0x61, 0x6c, 0x2f, 0x64,
  0x65, 0x6e, 0x73, 0x65, 0x5f, 0x32, 0x2f, 0x42, 0x69, 0x61, 0x73, 0x41,
  0x64, 0x64, 0x2f, 0x52, 0x65, 0x61, 0x64, 0x56, 0x61, 0x72, 0x69, 0x61,
  0x62, 0x6c, 0x65, 0x4f, 0x70, 0x00, 0x00, 0x00, 0x01, 0x00, 0x00, 0x00,
  0x01, 0x00, 0x00, 0x00, 0x00, 0x00, 0x16, 0x00, 0x18, 0x00, 0x14, 0x00,
  0x00, 0x00, 0x10, 0x00, 0x0c, 0x00, 0x08, 0x00, 0x00, 0x00, 0x00, 0x00,
  0x00, 0x00, 0x07, 0x00, 0x16, 0x00, 0x00, 0x00, 0x00, 0x00, 0x00, 0x01,
  0x10, 0x00, 0x00, 0x00, 0x10, 0x00, 0x00, 0x00, 0x02, 0x00, 0x00, 0x00,
  0x38, 0x00, 0x00, 0x00, 0x84, 0xff, 0xff, 0xff, 0x29, 0x00, 0x00, 0x00,
  0x73, 0x65, 0x71, 0x75, 0x65, 0x6e, 0x74, 0x69, 0x61, 0x6c, 0x2f, 0x64,
  0x65, 0x6e, 0x73, 0x65, 0x5f, 0x31, 0x2f, 0x42, 0x69, 0x61, 0x73, 0x41,
  0x64, 0x64, 0x2f, 0x52, 0x65, 0x61, 0x64, 0x56, 0x61, 0x72, 0x69, 0x61,
  0x62, 0x6c, 0x65, 0x4f, 0x70, 0x00, 0x00, 0x00, 0x01, 0x00, 0x00, 0x00,
  0x10, 0x00, 0x00, 0x00, 0x00, 0x00, 0x16, 0x00, 0x1c, 0x00, 0x18, 0x00,
  0x00, 0x00, 0x14, 0x00, 0x10, 0x00, 0x0c, 0x00, 0x00, 0x00, 0x00, 0x00,
  0x08, 0x00, 0x07, 0x00, 0x16, 0x00, 0x00, 0x00, 0x00, 0x00, 0x00, 0x01,
  0x14, 0x00, 0x00, 0x00, 0x20, 0x00, 0x00, 0x00, 0x20, 0x00, 0x00, 0x00,
  0x01, 0x00, 0x00, 0x00, 0x38, 0x00, 0x00, 0x00, 0x02, 0x00, 0x00, 0x00,
  0xff, 0xff, 0xff, 0xff, 0x05, 0x00, 0x00, 0x00, 0x04, 0x00, 0x04, 0x00,
  0x04, 0x00, 0x00, 0x00, 0x19, 0x00, 0x00, 0x00, 0x73, 0x65, 0x72, 0x76,
  0x69, 0x6e, 0x67, 0x5f, 0x64, 0x65, 0x66, 0x61, 0x75, 0x6c, 0x74, 0x5f,
  0x69, 0x6e, 0x70, 0x75, 0x74, 0x5f, 0x31, 0x3a, 0x30, 0x00, 0x00, 0x00,
  0x02, 0x00, 0x00, 0x00, 0x01, 0x00, 0x00, 0x00, 0x05, 0x00, 0x00, 0x00,
  0x01, 0x00, 0x00, 0x00, 0x10, 0x00, 0x00, 0x00, 0x0c, 0x00, 0x0c, 0x00,
  0x0b, 0x00, 0x00, 0x00, 0x00, 0x00, 0x04, 0x00, 0x0c, 0x00, 0x00, 0x00,
  0x09, 0x00, 0x00, 0x00, 0x00, 0x00, 0x00, 0x09
};

const unsigned int model_tflite_len = 4820;

#endif
